#version: 0.2
ä ¸
ï ¼
ç ļ
çļ Ħ
ã Ģ
ä »
ä º
ãĢ Ĥ
ï¼ Į
æ ľ
æ Ī
å ı
ä ½
å ¤
è ¿
å Ī
å ħ
æ ĺ
æĪ ĳ
å ľ
ä ¼
äº º
æĺ ¯
å ®
â Ģ
ä» ¬
ä¸ Ģ
è ®
å Ĭ
ĥ ½
åľ ¨
ä ¹
å °
æľ ī
è¿ Ļ
ä¸ į
å ¾
è ¯
æ Ĺ
å Ĳ
âĢ Ķ
ç »
å ¹
è ĥ½
å ¸
ç Ķ
é ĩ
æĪĳ ä»¬
ä¼ ļ
æ ĸ
æ Ŀ
é Ģ
¦ ģ
å ·
è Ģ
ä¸ º
è ¦ģ
å¤ ļ
å Ľ
ä¸ ª
ä» ĸ
è µ
æ Ń
å¤ §
æ ī
æ Ĭ
æ ĥ
åħ ¬
å ¯
ç §
åĪ Ľ
å ĩ
åı ¯
ä½ ł
åı ¸
å ¼
åħ¬ åı¸
è §
æĹ ¶
æ ķ
æ Ħ
å º
ä» ¥
ä½ Ĩ
å ¦
æ Ģ
é Ŀ
ç Ľ
å¦ Ĥ
é Ĺ
æ ³
æĿ ¥
å ¥
èµ Ħ
ç İ
å Ĩ
è ĩ
æ ŀ
âĢĶ âĢĶ
äº Ĩ
å Ĵ
æ Ķ
æĪ Ĳ
æ Ľ
æ ¯
åĴ Į
å į
æľ Ģ
å¯ ¹
åĪ °
å ģ
å¸ ¸
äº Ľ
äº ĭ
æĽ ´
å· ¥
å¾ Ī
å¾ Ĺ
ç ľ
é ¢
å ¿
è ´
ãĢ ģ
è ¡
å ½
å¹ ´
å Ń
èĢ Į
çİ °
ä»ĸ ä»¬
æ Į
ä¸ Ĭ
äº İ
ï¼ ī
é Ļ
ä½ ľ
æ ł
ä¸Ģ ä¸ª
ï¼ Ī
è¿ ĩ
åı¯ èĥ½
ç ī
è ¶
ä¸ Ń
å¹ ¶
å Ģ
å ĳ
æĸ ¹
å¥ ½
åĩ º
åģ ļ
ä ¿
éĩ į
æĬ ķ
åĬ Ľ
çĶ ¨
å° Ĩ
å® ŀ
åħ ¶
æ³ ķ
æķ °
å §
æŀ ľ
å İ
ä¸ ļ
æĥ ³
å§ ĭ
æ ²
æ ĭ
è® ¤
çĶ Ł
é ĥ½
æĦ ı
éĿ ŀ
æ İ
ç§ į
é ķ
ç ®
åı ĳ
éķ ¿
å ī
æŃ £
èĩ ª
æĥ ħ
æ ¬
ç Ħ
éĢ ļ
å° ±
ä¹ Ł
ç ķ
ç» ı
çĦ ¶
æ Ļ
å Į
é ľ
å® ¶
ä ¾
æ¯ Ķ
æľ Ł
åĽ ł
éĹ ®
ç Ń
ä¸ İ
èĢ ħ
æī Ģ
åħ ³
æĬķ èµĦ
åī į
ç Ĳ
ä½ ķ
å¦Ĥ æŀľ
å½ ĵ
éľ Ģ
ç ¾
å® ĥ
è¯ ´
æĸ °
å ¢
è ģ
åĲ İ
ç ¡
ç ³
é ¡
åº Ķ
è ½
è¡ Į
é ļ
æĪ ĸ
éĹ ´
è®¤ ä¸º
é Ĥ
éĩį è¦ģ
æĮ ģ
è® ¸
æľ º
æĹ ł
ç¾ İ
åĪ Ŀ
æ µ
ä¹ Ī
ç Ĥ
å·¥ ä½ľ
å ±
æĢ §
éľĢ è¦ģ
è¿ Ľ
é¢ ĺ
ç ¨
âĢ ľ
åĪ Ĩ
âĢ Ŀ
æŃ ¤
è °
ï¼ ļ
åľ °
å¼ Ģ
çĲ Ĩ
ä¹ ĭ
ç «
åĲ Į
æ² ¡
éĤ £
åĪĽ å§ĭ
åĽ ½
åĢ ¼
éĿŀ å¸¸
åı¯ ä»¥
çĤ ¹
çļĦ äºº
æľ ¬
å¢ ŀ
åĪĽå§ĭ äºº
å »
å® ļ
çĽ ¸
çľ Ł
çľ ĭ
åĬ ¨
éĩ ı
æ ı
çī ¹
é ģ
æĬ Ģ
éĹ® é¢ĺ
è® º
ä¹ İ
éĿ ¢
ä» »
ç¡ ®
å ĵ
ä¸ ĭ
ç º
ä½ ¿
è¯ ¥
ç Ł
ä» ·
è§ £
æ °
é Ķ
åı ĺ
å¼ ı
å» º
ä» İ
åĩ ł
æı Ĳ
å Ł
ĸ çķ
éĢ ł
« ĺ
é «ĺ
é ĺ
æĹ¶ éĹ´
åħ¶ ä»ĸ
å° ĳ
åĪĿ åĪĽ
æ²¡ æľī
åĲ Ī
äºĭ æĥħ
æĺ İ
éļ ¾
è® ©
æĦ Ł
ä¼ ĺ
åŃ ¦
ä¿ Ŀ
æ¯ ı
å¤ļ æķ°
åº ¦
æ¬ ¡
äº §
è® ¡
è Ĥ
çĽ ®
éĩ ĳ
æł ·
ä¿ ¡
åĨ ³
ä¸ Ķ
* *
ç ł
èĩ ³
è®¸ å¤ļ
å¢ŀ éķ¿
ç ½
é ĥ
åħ ¥
åĬ ©
ä¸ ĸçķ
è¿ ĺ
ä¸ĸçķ Į
éĥ ¨
2 0
æ ´
æĿ ĥ
è ¾
åĬ ł
è¿Ļ äºĽ
ç¨ ĭ
æ Ł
åħ ¨
ä¸Ģ äºĽ
åºĶ è¯¥
åĬ Ł
ï¼ī ãĢĤ
ç® ¡
é Ľ
æ³ ¨
åĳ ĺ
å¤§ å¤ļæķ°
å¤ ©
ç ±
åĪ ©
éĢļ å¸¸
åĮ ĸ
æĪĳ è®¤ä¸º
ç§ ĳ
è ¢
Ģ ä¹Ī
ä» Ģä¹Ī
äºº ä»¬
ä»» ä½ķ
å Ŀ
åı ª
ç± »
ï¼ Ľ
ä¼ ¼
å¤§ çļĦ
ä¸ »
æĪĲ åĬŁ
æĻ º
è¢ «
å ĸ
æľ ¯
ä½ ĵ
æķ Ī
å· ²
å¤ ĸ
å· ±
æĶ ¯
çŃ ī
å® Į
å¥½ çļĦ
ä¾ ĭ
çŁ ¥
æľ ª
è¿Ļ ä¸Ģ
èµ ·
åİ »
èĩª å·±
æ ±
ç ¤
æĺ ĵ
æ ¸
å¤ Ł
åĪ ¶
ç® Ĺ
Y C
ç ©
ç Ŀ
è İ
åĲ ĳ
å¿ ĥ
éģ ĵ
æľ Ľ
æĢ »
éĻ ©
çľŁ æŃ£
æĶ ¿
æĸ¹ å¼ı
ç ¬
é £
è¿Ļ ç§į
éĩ Į
æĽ´ å¤ļ
æīĢ æľī
ä¸į æĺ¯
çİ° åľ¨
ç» Ń
å¹ ³
åį ³
ç ¼
å° ½
è¯ ķ
éĢ ī
å± ķ
æĬĢ æľ¯
æ º
èİ ·
èĢ ĥ
ç³ »
æŁ Ĳ
æ ¶
çļĦ åħ¬åı¸
åĬ ¡
å¾Ī å¤ļ
åŃ Ĳ
ç¾İ åĽ½
å¤ ±
è® ®
çļĦ æĺ¯
ä» ¶
çī ©
åĽł ä¸º
åĪĿåĪĽ åħ¬åı¸
è¡ ¨
è¶ Ĭ
é¡ ¹
è ·
ç» Ī
æĬķèµĦ èĢħ
å¿ ħ
èĤ ¡
åı ĸ
ä½ į
æĻº èĥ½
æ ģ
è Ļ
åħ ĥ
æİ ¥
éĶ Ļ
ä¼ ģ
è¿Ļ ä¸ª
è§ ģ
æĦ ¿
ç« ĭ
ç½ ĳ
å° ı
æī ¾
æī į
æĢ Ŀ
åİ Ł
æ į
å¦Ĥ ä½ķ
æĺ ¾
æĶ ¹
ä¼ģ ä¸ļ
è ŀ
ä¸ª äºº
æ´ »
çĿ Ģ
çļĦ äºĭæĥħ
äº ¤
è¿ ľ
ä¸į ä¼ļ
æĪĲ ä¸º
å¦Ĥæŀľ ä½ł
æº Ĳ
èŀ į
å® ¹
ç ĸ
ä¼¼ ä¹İ
æ ¨
è ±
è Ĭ
å¿ «
éĥ¨ åĪĨ
åĪ «
å¸ Į
éĢ Ł
åĵ ģ
å·² ç»ı
è ī
ä» į
åı Ĭ
åı Ĺ
åĨ ħ
èģ Ķ
æ¨ ¡
ä¸ ¤
å¾ Ģ
çł Ķ
å ĥ
è¿ Ĳ
æĹ ©
å¸ ģ
æĸ ĩ
åĨ µ
æŀ ģ
å¸Į æľĽ
å¤ ª
æŃ ¥
é£ İ
ä½ İ
ä¸Ģ å®¶
å¸ ®
æĹł æ³ķ
ç¤ ¾
ç¬ ¬
ç ¥
ä» £
è§ ī
ä¹ ī
é¢ Ĩ
éĢļ è¿ĩ
ä»· åĢ¼
åĥ ı
æ ¡
ä» Ĭ
ä¼ °
è¯ Ĩ
æĥ³ æ³ķ
ä¾ Ľ
éĤ£ äºĽ
å¸® åĬ©
é ª
è¿Ļ æĺ¯
æĶ ¶
æĥħ åĨµ
ç¾İ åħĥ
èİ· å¾Ĺ
å¤ Ħ
åľ º
è¯ ¯
å¼ º
åĳ ½
ç© ¶
åħ ·
ç» Ł
çĶ ±
åĪĽ éĢł
åĩł ä¹İ
çłĶ ç©¶
è¶ ħ
æĸ¹ éĿ¢
è§£ åĨ³
å ŀ
é Ĵ
æĪ ·
ç§ Ģ
åĪĽ ä¸ļ
è¶ ³
æİ ¨
å¼Ģ å§ĭ
ä¼ĺ ç§Ģ
å¸ Ĥ
åĽ ŀ
åĳĺ å·¥
åħ Ī
ä¸Ģ ç§į
åı¯èĥ½ ä¼ļ
ç»ı æµ
åŁ º
è± ¡
ç»ıæµ İ
0 0
æĻ ®
æ± Ĥ
çİ ĩ
æł ĩ
æ¬ ¢
¥ ¿
æ ®
è ¥¿
è¿Ļ æł·
æľĢ ç»Ī
ï¼ī ï¼Į
è¶ £
å°½ ç®¡
ï¼ Ł
ä» ¤
äº ī
åı į
ç» ĵ
é¡ »
å¿ħ é¡»
èŀį èµĦ
éª Į
äºº ç±»
æŀ Ħ
é¢ Ħ
æµ ģ
è° Ī
åĸ ľ
æ¸ ħ
r e
ª åĬĽ
å¤ į
ä¼ Ł
åĬ ªåĬĽ
æŃ ¢
è§ Ĥ
è§ Ħ
åŃ ĺ
æł ¼
ç ´
åĬ ŀ
èµĦ éĩĳ
äº§ åĵģ
ä¸ ľ
æĪ ¿
èĩ ´
åŁ Ł
èµ· æĿ¥
ä¸į è¦ģ
çĽ Ĭ
åį ķ
æĮ ĩ
å®ŀ çİ°
æıĲ ä¾Ľ
æ¡ Ī
å Ķ
ä¸ ĵ
ä½ ı
ç» Ļ
åº ľ
å½ ±
ç³ Ł
æ° ĳ
æĶ¿ åºľ
æĦ¿ æĦı
å Ļ
ç ¦
åĽ ¢
èĢĮ ä¸Ķ
åĵ į
é¡¹ çĽ®
å®¹ æĺĵ
è´ ¹
çĽ¸ ä¿¡
ä¿Ŀ æĮģ
ç§ĳ æĬĢ
çŁ¥ éģĵ
æĢĿ èĢĥ
é¢Ĩ åŁŁ
ç Ī
è¿ ĳ
çĽ ´
å¦Ĥ æŃ¤
åĨ į
æĭ ¥
è®¡ ç®Ĺ
ä¸ľ è¥¿
å½± åĵį
ä» ħ
è¯ Ŀ
éĢ Ĥ
å· ¨
éĻ ¤
éĻ ħ
çĶ¨ æĪ·
åħ³ äºİ
æĶ¯ æĮģ
è¿Ļä¸Ģ çĤ¹
ç ĥ
è® ¾
è¯ ·
çĶ µ
æĬ ¥
çĶŁ æ´»
ç³ ķ
è½ ®
é£İ éĻ©
ä¼° åĢ¼
æĭ¥ æľī
èĥ½ å¤Ł
ä½ł çļĦ
æĿ¥ è¯´
æĶ ¾
éķ¿ æľŁ
æľª æĿ¥
åĸľ æ¬¢
ç³Ł ç³ķ
åĻ ¨
è Ħ
åı ¦
åĲ ¬
åĲ į
æĸ Ń
è§ Ĩ
éĴ ±
i n
o n
é ¦
åħ ±
ç» §
åĽ ¾
å¤§ éĩı
æĥ Ĭ
æĭ ©
åıĳ çĶŁ
åĮ º
åĽł æŃ¤
éĢī æĭ©
æ¶ Ī
æ® µ
åĪ Ĵ
è® °
æĪĳä»¬ çļĦ
éĻ Ĳ
å¹¶ ä¸į
å®ĥ ä»¬
åĪĿåĪĽ ä¼ģä¸ļ
å®Į æĪĲ
ç»§ ç»Ń
° éļ¾
å £
è Ĳ
çļĦ æľĢ
æľ Ī
å¯ ¼
ä»¥ åıĬ
è´ ¨
åİŁ åĽł
èĬ ±
a t
è ĳ
äº Ĵ
æľ į
åı ĭ
åĬ ¿
æīĢ ä»¥
ä»į çĦ¶
A I
ç Ĺ
ä¸į åĲĮ
å¯ Į
éļ ı
å»º è®®
éĺ Ł
éĶĻ è¯¯
æį ®
åŀ ĭ
ä»¤ äºº
åı Ĥ
æī ĭ
åį ģ
æŃ£ åľ¨
å°± æĺ¯
èģ Į
æľº åĻ¨
çº §
åıĺ å¾Ĺ
20 1
ç§ĳ åŃ¦
ç¤¾ ä¼ļ
a n
ç Ĭ
ç Ļ
åĢ Ļ
çº ¦
éĽ Ĩ
æī¾ åĪ°
ç¥ ¨
è ĥ
Ġ C
çļĦ å·¥ä½ľ
æĪ ĺ
åĪ ĩ
åĪ Ļ
æĿ ¡
åĪĽ æĸ°
è½ ¬
çľĭ åĪ°
åĽ¢ éĺŁ
i t
è ĭ
ä½ ³
æĹ ¥
èĥ½ åĬĽ
å¸ ¦
è´ ¥
åı¯èĥ½ æĺ¯
å®ŀ éĻħ
è¾ ¾
e r
è į
åĲ ¦
æķ Ļ
ä½ľ ä¸º
æĸ¹ æ³ķ
æŃ£ ç¡®
æ¯Ķ çī¹
è®¡ åĪĴ
æĹ© æľŁ
ä¸ ĩ
äºº çļĦ
æī ĵ
æĭ ħ
å½ĵ çĦ¶
æĮģ ç»Ń
è° ·
åĽ½ å®¶
çĽ® åīį
åĿ ļ
åį³ ä½¿
æ¯Ķçī¹ å¸ģ
è½ ¯
èĩ³ å°ĳ
æ ħ
ä¸ ī
ä¼ ł
æľī å¾Īå¤ļ
æľī è¶£
è¿ĩ åİ»
åĳ ¨
ä¹ĭ ä¸Ģ
è· ¯
è º
é ħ
æĺ¯ ä¸Ģä¸ª
å¥ ³
åĨ³ å®ļ
ç³» ç»Ł
å¸Ĥ åľº
a c
å ĭ
çļĦ ä¸ľè¥¿
åħ ´
æĪĳ çļĦ
å® ī
èĥ½ æºĲ
åĨ Ļ
è´ ¢
åıĳ çİ°
çķ Ļ
çĦ¶ åĲİ
è¿Ľ è¡Į
ä¹ĭ åīį
ä½¿ çĶ¨
å®Į åħ¨
ä¾ĭ å¦Ĥ
æĢ» æĺ¯
èĻ ĳ
e n
ç ĭ
çļĦ æĸ¹å¼ı
äº ¿
è¿Ļ éĩĮ
æķ ´
å¼Ģ åıĳ
ç¡® å®ŀ
æĦŁ åĪ°
å¤§å¤ļæķ° äºº
æĶ¹ åıĺ
èģĶ ç½ĳ
èĲ ¥
èº «
1 0
o r
¿ Ģ
å ķ
æ ½
æ ¿Ģ
ä¹ Ĳ
åĩ ı
åħ¬åı¸ çļĦ
ä½Ĩ æĪĳ
ä»ĸä»¬ çļĦ
çĲ ĥ
éĩįè¦ģ çļĦ
æľº ä¼ļ
çŁ Ń
åĸ Ħ
å¤± è´¥
ä¸ĵ æ³¨
äºĴ èģĶç½ĳ
a r
æ ¼
é ©
ãĢĤ âĢĿ
è® ¨
ä¹ ł
å° Ŀ
è¯ ģ
æĸ ¯
ç§ »
éĿ ©
æĪĲ æľ¬
åİ Ĩ
åıĳ å±ķ
è¿Ľ å±ķ
ä»· æł¼
èĤ¡ æĿĥ
è½¯ ä»¶
å¥³ æĢ§
o m
¨ Ģ
è ¨Ģ
é »
å® ¤
ä¸Ģ æ¬¡
å¾ ħ
èµĦ åĬ©
äºĭ å®ŀ
èĢĮ ä¸įæĺ¯
æĭ Ľ
çľĭ èµ·æĿ¥
éĽ ĩ
èĢĥ èĻĳ
ç¦ »
çĪ ±
å°Ŀ è¯ķ
ç» Ŀ
åį ´
è´ Ń
åĢ į
åĳ Ĭ
ç« ŀ
æ Ĥ
ç ²
ä¸ ´
å¸ ĥ
å¯ Ĩ
æ³ ¡
å¾Ī éļ¾
å¢ ĥ
è½ »
æ¯ı ä¸ªäºº
ä¸» è¦ģ
è¡¨ çİ°
èī ²
è¶³ å¤Ł
è £
ĭ åıĭ
çļĦ äºĭ
æľ ĭåıĭ
å® ¢
ç» ľ
æĪĳä»¬ éľĢè¦ģ
åĽ °éļ¾
åĪĽ åĬŀ
æĹ¶ åĢĻ
çİ ¯
æ² «
æĦı ä¹ī
æ¬ ¾
æĬķèµĦ äºº
è¡Į åĬ¨
æĹł è®º
éĤ£ ä¹Ī
æĦŁ è§ī
çł ´
ç½ĳ ç»ľ
è®¡ç®Ĺ æľº
æ³¡ æ²«
Â ·
æ »
ç ģ
ä» ĺ
å° Ķ
å¹ ¸
å¸ Ī
çĶ ļ
å· ®
ç§ °
åĩ Ĩ
å¼ ķ
ä¸Ń çļĦ
åĩº çİ°
åħ³ æ³¨
çī¹ åĪ«
æ° Ķ
ç¼ ĸ
èĻ ½
å¾Ģ å¾Ģ
ä¼ĺç§Ģ çļĦ
æľį åĬ¡
ç«ŀ äºī
i s
l e
æ ·
ç ª
Ĺ æĻ®
ãĢĤ [
ãĢĤ ï¼ī
æľ ĹæĻ®
æĪĳä»¬ å°Ĩ
éĩį å¤§
æµ ĭ
ç¨ İ
çī¹ æľĹæĻ®
çº ¿
æ° ¸
éĶ ®
äº§ çĶŁ
è§ī å¾Ĺ
ä»Ĭ å¤©
è§Ħ æ¨¡
é¦ ĸ
å¸¦ æĿ¥
è®¨ è®º
Â ł
å¤ ĩ
ä¹ °
å¾ ĭ
è¯ ī
çĶ ³
æĽ ¾
å·¥ æĻºèĥ½
å¹¶ ä¸Ķ
åĮ ħ
ä¾ ¿
åħ³ éĶ®
èģ ª
éĶ Ģ
æŁĲ ç§į
è°Ī è®º
åŃĺ åľ¨
åįģ å¹´
åķ Ĩ
çĶļ èĩ³
1 9
å° ¤
åĲ Ħ
è¦ģ æ±Ĥ
å¥ ĩ
åį ĩ
äºĭ ä¼ļ
éĻ į
æĬķ åħ¥
çķ ¥
å½ĵ åīį
è¿Ľ æŃ¥
è° ĥ
éĺ ¶
åıª æĺ¯
æĺ¾ çĦ¶
äº¤ æĺĵ
ä¼Ł å¤§çļĦ
åĶ ®
æ½ ľ
æ¼ Ķ
èģª æĺİ
ç ħ
æĪĳ åľ¨
ä¸Ģ åĪĩ
ç» Ħ
æĢ ģ
åģ ľ
å¾Ĺ å¤ļ
æł ¹
ç»ı å¸¸
èģ ĺ
ç¡ ħ
æ° ´
åĲĪ ä½ľ
çĽ® æłĩ
ç¼ º
ä¼Ł å¤§
èĳ £
è´¢ å¯Į
æĭĽ èģĺ
æ°¸ è¿ľ
b o
äº Į
è¯ »
æī ¹
å¯ »
è´ §
æĥ³ è±¡
åĢ¼ å¾Ĺ
èĻ½ çĦ¶
çĶ³ è¯·
i r
r i
äº «
äº Ī
åı ²
åħ į
æĪĳ ä¸į
æľī äºĽ
æľī ä¸Ģä¸ª
æĹ §
æĪĳä»¬ åľ¨
æī ¿
çĽ ĳ
æľĢ å¥½çļĦ
è´ Ł
è¡ ¡
å®ŀ éªĮ
ä¹ĭ éĹ´
è®¸å¤ļ äºº
ç¤ º
èĬ Ĥ
å¿« éĢŁ
éļı çĿĢ
åıĤ ä¸İ
ac e
ç² ¾
ç¡ħ è°·
èĳ£ äºĭä¼ļ
æľī æķĪ
è¯ Ħ
åģļ åĩº
ç® Ģ
å°± ä¼ļ
æĻ ¯
çŃ Ķ
åħ³ ç³»
å± ±
åĲĮ æĹ¶
å¢ŀ åĬł
æŀĦ å»º
çª ģ
è´§ å¸ģ
] ãĢĤ
ç ¢
è Ī
ãĢĤ ï¼Ī
åĪ »
ä¼ Ĺ
æĺ¯ åĲ¦
ä¸į æĸŃ
éĩ Ĭ
å¼ ł
æĽ´ å¥½
æĮ ī
æİ Ī
ä¹Ł æĺ¯
çŃ ¹
éĺ ħ
éļ¾ ä»¥
åŃ¦ ä¹ł
æĪĲåĬŁ çļĦ
æŁĲ äºĽ
åıĸ å¾Ĺ
æİ¥ åıĹ
è¿Ļæł· åģļ
éĻ¤ äºĨ
çĥ Ń
èģĮ ä¸ļ
äº¿ ç¾İåħĥ
æ¯ıä¸ªäºº éĥ½
å°¤ åħ¶
A ir
è ĸ
ä» ½
è¿ ½
è® ¶
æĬ Ĭ
èµĦ æºĲ
å·¥ ç¨ĭ
æĮ ĳ
åģļ ä»Ģä¹Ī
åħ¶ ä¸Ń
æķ° éĩı
æĥ³ è¦ģ
éĥ½ æĺ¯
çŃ ĸçķ
å»º ç«ĭ
éĩĳ å±±
è¾ ĥ
åĬł åħ¥
æ³¨ æĦı
è¯ķ åĽ¾
èĤ¡ ç¥¨
æĶ¶ åħ¥
æĥħåĨµ ä¸ĭ
åı¦ ä¸Ģä¸ª
æĥĬ è®¶
å®ŀéĻħ ä¸Ĭ
çİ¯ å¢ĥ
éĺ¶ æ®µ
æĹ§ éĩĳå±±
Air b
çŃĸçķ ¥
n b
¯ ä¸Ģ
» çĸ
å Ĥ
æ ĵ
æ ļ
äºº æīį
æľī æĹ¶
æĸ ½
ä¸º ä»Ģä¹Ī
æĬ ¤
ä½ł åı¯ä»¥
åŃ Ĺ
çŃ ĸ
åħ³ éĩįè¦ģ
âĢĿ ãĢĤ
çĲĨ è§£
çĽ¸ å½ĵ
éģ ¿
èĩ³ åħ³éĩįè¦ģ
åıª æľī
ä½ı æĪ¿
åĩı å°ĳ
åĳĬ è¯ī
æĮĳ æĪĺ
Airb nb
»çĸ Ĺ
ä¸ ¥
çļĦ æĥ³æ³ķ
æī §
åģļ åĪ°
ä¹Ł è®¸
æ¯Ķ å¦Ĥ
æĪĸ èĢħ
éĿ¢ ä¸´
åıĺ åĮĸ
ä¼ĺ åħĪ
ä¼ĺ åĬ¿
è§ģ è¿ĩ
éĢŁ åº¦
æ¨¡ å¼ı
å·¨ å¤§
å·¨ å¤§çļĦ
å¯¼ èĩ´
çĹ ħ
æīĵ éĢł
åİĨ åı²
çĽĳ ç®¡
o k
r o
ï¼ ģ
åħ ĭ
äºº å·¥æĻºèĥ½
å® ³
åĬ ±
æī ©
ä»¥ ä¸ĭ
æĢ ķ
éĹ ¨
åį ±
å¹´ çļĦ
æĸ¹ æ¡Ī
æķ° æį®
åİ ĭ
æĦı è¯Ĩ
é¡ º
æĪĸ è®¸
èĤ ²
ç¨ĭ åº¦
åħ¨ çĲĥ
åĿ ı
ç¼ ĵ
æīį èĥ½
çĸ ĳ
åŁº æľ¬
å£ °
çĬ ¯
éĿ© åĳ½
äºĭå®ŀ ä¸Ĭ
æ· ±
çħ §
å®ŀéªĮ å®¤
èĸ ª
* ï¼ļ
1 00
Ġ **
çļĦ ä¸Ģ
åı £
ä¼ Ļ
æĺ¯ æĪĳ
ç» ´
ä¸º äºĨ
æŃ »
åĩ »
æľĢ åĲİ
æľĢ è¿ĳ
åģ ĩ
åĮ »çĸĹ
åľ° ä½į
ä½¿ åĳ½
åĩł å¹´
åħ¶ä»ĸ äºº
åĲĪ çĲĨ
èĩªå·± çļĦ
æģ ¯
å¤Ħ äºİ
å¤Ħ çĲĨ
åĽŀ æĬ¥
re d
ç´ §
åĶ ¯ä¸Ģ
å£ «
æķĻ èĤ²
ä¸ĩ ç¾İåħĥ
çĭ ¬
ä¸ĵæ³¨ äºİ
F ace
a l
d it
e l
ãĢĤ **
ä½ £
è¿ ¹
åľ¨ äºİ
ä¹ ħ
æĹ ¢
éĩ ĩ
æĪĳä»¬ ä¸į
ç§ ¯
ä½ł å¿ħé¡»
å¼ Ĥ
æľĢ åĪĿ
é¢ Ŀ
èĢĮ éĿŀ
åĩº èī²
è®¤ è¯Ĩ
ä¹Ł ä¼ļ
æĸ° çļĦ
è° ¢
åĲĮ æł·
çľŁ çļĦ
ä¿Ŀ éĻ©
è¿ĺ æľī
ä¸ĸçķĮ ä¸Ĭ
æĶ¯ ä»ĺ
æĸĩ åĮĸ
åħ· æľī
éħ į
ç§» æ°ĳ
é» ĳ
éĽĩ ä½£
æ» ¡
bo ok
å¯» æī¾
Face book
5 0
M I
S MI
Ġ Ġ
ä¸ ¾
çļĦ æĸ°
çļĦ éĹ®é¢ĺ
åħ ģ
æĪĳ ä¼ļ
ä¹ ı
å¾ ®
å¹ ¿
æĪĳä»¬ åı¯ä»¥
æĪĳä»¬ åºĶè¯¥
ç§ Ł
ä½ł ä¼ļ
ä½Ĩ è¿Ļ
æĿ¥ èĩª
åį ı
äºĭ çī©
æĽ´ å¥½çļĦ
å¿ µ
æł ¸
æĸ¹ åĲĳ
æİ §
å± ŀ
åľ° æĸ¹
çľŁ å®ŀ
å°ĳ æķ°
æĺİ ç¡®
æ¯ı å¹´
æŁ ¥
ç®¡ çĲĨ
ä¾ĭ åŃĲ
åĪ¶ éĢł
ç© º
ç¬¬ äºĮ
æĮĩ æķ°
ç¦ ı
èĦ ĳ
æľºåĻ¨ æĻºèĥ½
æİĪ äºĪ
çŃ¹ éĽĨ
æ £
Ġ [
åı ¥
åı Ī
å¤ ´
åħ ħ
ä¸Ģ å¹´
è® ²
åĲ ¸
æĿ Ĥ
è¦ģ ä¹Ī
ä¸ª æľĪ
ä½Ĩ åľ¨
æĿ¥ è¶Ĭ
æĪĲ åĳĺ
å¯¹ äºİ
å½ Ĵ
çī ĩ
åĳ ³
æĭ ¬
çĶŁ çī©
åħ³ å¿ĥ
èģ ļ
è¡Į ä¸ļ
ç« ł
ä»» åĬ¡
ç¡® ä¿Ŀ
æĦŁ è°¢
æĶ¿ çŃĸ
è¶Ĭ æĿ¥è¶Ĭ
è¿Ļä¸ª éĹ®é¢ĺ
èī ¯
æĸĩ ç«ł
ç»ıæµİ å¢ŀéķ¿
æĻ® éĢļ
è½® èŀįèµĦ
ç³Łç³ķ çļĦ
çļĦæľĢ ä½³
è´¨ éĩı
èĳ Ĺ
çĻ ¾
æĿ¡ æ¬¾
å®ī åħ¨
çŁŃ æľŁ
åĮħ æĭ¬
æī§ è¡Į
red dit
åħģ è®¸
b in
å ¨
ç Į
çļĦ ä¸Ģä¸ª
çļĦ åĪĽå§ĭäºº
ãĢ Ĭ
ãĢ ĭ
âĢ ¦
ä¸Ģ å®ļ
ä¸į åĪ°
å¹ ħ
åĽ ´
ä»ĸ çļĦ
ä»ĸ äºº
ä½ł ä¸į
åº ı
åº ķ
æľĢ å¤§çļĦ
å¿ ½
çİ° å®ŀ
åĬĽ çļĦ
å°Ĩ æĺ¯
æ² »
éĥ½ ä¼ļ
æĦı åĳ³
èĩª çĶ±
æľŁ æĿĥ
è½ ¦
éĩįè¦ģ çļĦæĺ¯
æµ ª
ï¼ļ "
ç¡® å®ļ
æıĲ åĩº
é«ĺ æķĪ
æ¯ı ä¸ª
åĿ ĩ
ä¸» ä¹ī
åį³ å°Ĩ
æŁĲ ä¸ª
æĶ¹ è¿Ľ
æĶ¹ åĸĦ
ç¬¬ ä¸Ģ
è¶ħ è¿ĩ
å¤į æĿĤ
ç´ ł
at or
ĠC om
æĭħ å¿ĥ
åĿļ æĮģ
æħ ¢
åħ´ è¶£
ç»Ŀ å¯¹
è´Ń ä¹°
ç¼º ä¹ı
ç®Ģ åįķ
éĺħ è¯»
å°¤åħ¶ æĺ¯
bin ator
ĠCom binator
O p
] ï¼Į
e c
s t
å ²
çļĦ åĪĿåĪĽåħ¬åı¸
è¿ ħ
ä¸Ģ çĽ´
åľ¨ è¿Ļ
æľī äºº
è¯ º
éĢ Ĳ
å¤§ å¹ħ
åħ¬ å¹³
åĪĽ å»º
è§ Ĵ
æĢ Ģ
å¥ ĭ
å¥ ĸ
æĽ´ å®¹æĺĵ
è´ £
èĢĮ æĺ¯
éĻ ·
è¿ĩ ç¨ĭ
å¹¶ éĿŀ
æĬķ ç¥¨
çĶ¨ äºİ
æİ Ĵ
èĢħ çļĦ
ç¾ ¤
å± Ĥ
æŃ¤ å¤ĸ
çĽ¸ åĲĮ
å»º éĢł
ä»İ æľª
éĺ »
éĽ ¶
åĪ© çĶ¨
çŃī çŃī
æ¸ Ĳ
æĽ´å¤ļ çļĦ
å¤± åİ»
çī© çĲĨ
æģ Ĳ
ç¤¾ åĮº
ç¥ ŀ
è§Ĥ çĤ¹
éĻĲ åĪ¶
ç§ĳåŃ¦ å®¶
è¾¾ åĪ°
éĶĢ åĶ®
åģľ æŃ¢
çŃĶ æ¡Ī
çªģ çł´
åį± éĻ©
æĦıåĳ³ çĿĢ
3 0
a m
æ ¥
ç ¯
é ĵ
é Ł
çļĦ æĹ¶éĹ´
äº Ķ
æĪĳ æĥ³
äºº åĳĺ
ä¸Ģ æł·
ä¸Ģ ä½į
ä¹ ¦
èµ °
å¯ Ł
æ³ Ľ
åģ ¥
åģ ı
å¾Ĺ åĪ°
å¹´ è½»
ä¸Ĭ çļĦ
åıĳ å¸ĥ
ç»ı éªĮ
å½ĵ ä½ł
æĢ§ çļĦ
å®ļ ä¹ī
åĵ ª
ä»İ äºĭ
æĺİ æĺ¾
æķĪ åºĶ
æģ ¶
è¿Ĳ ä½ľ
è¶ħ çº§
æİ¨ åĬ¨
çĽ´ æİ¥
è®° ä½ı
éĶĻè¯¯ çļĦ
è¯ģ æĺİ
ç¼ĸ ç¨ĭ
æł¹ æľ¬
éģ¿ åħį
è¿ħ éĢŁ
! [
J e
¯ çĭ
è Į
Ġ A
Ġ G
è¿ ·
åĪ Ĺ
åĪ ļ
æĪĳ å¸ĮæľĽ
æĪĳ çĽ¸ä¿¡
åľ¨ æĪĳ
æľī ä»·åĢ¼
è¿Ļ å¾Ī
ä¸į åı¯
ä¸į å¤ª
ä¸į åĨį
å¹ ²
æĪĳä»¬ çİ°åľ¨
ä¼ļ è®®
æŃ Į
ç§ ģ
åĨ ľ
æ¯ «
å·¥ åħ·
è¶ ĭ
åĢ Ł
æĭ Ĵ
çĶŁ äº§
éĥ½ ä¸į
éķ¿ æĹ¶éĹ´
çķ Į
éĩįè¦ģ æĢ§
åĬ¨ åĬĽ
ä¸ĭ éĻį
ç½ ®
éĢļå¸¸ æĺ¯
çŁ¥ è¯Ĩ
å¹³ çŃī
äº¤ è°Ī
çĸ ¯çĭ
èī °éļ¾
åĨħ å®¹
é¢Ħ æµĭ
ä»ħ ä»ħ
çĥ Ī
åİŁåĽł æĺ¯
çĹ Ľ
çĻ ½
æŃ£ç¡® çļĦ
ä¸¥ éĩį
å¨ ģ
ç¯ ĩ
çĸ¯çĭ Ĥ
A G
K y
çļĦ è¯Ŀ
è¿ °
å® £
æľī å¤ļ
æľī æĦıä¹ī
å¾ ģ
æĪĳä»¬ ä¼ļ
èµ ļ
å¤§ çº¦
ä½ł ä»¬
ä½ł åºĶè¯¥
ä½Ĩ æĪĳè®¤ä¸º
èµĦ æľ¬
äºĨ è§£
å¯¹ æĪĳ
æĽ´ åĬł
å¾Ĺ ä¸į
å¿ Ĺ
ä½ľ çĶ¨
æķ° åŃĹ
ä¸ļ åĬ¡
æĭ ī
èĩª çĦ¶
æĻ °
ä¾ Ŀ
å± Ģ
åĪĨ äº«
å¼Ģ æĶ¾
ç« ¯
æľ¬ èº«
çľĭ æĿ¥
è§£ éĩĬ
åŁ ¹
æ²¡æľī äºº
åĲĪ ä¼Ļ
è®© æĪĳ
ä¿Ŀ æĬ¤
çł ģ
ç¨ĭ åºı
è¿Ļç§į æĥħåĨµ
æį ¢
æŀģ åħ¶
å¼º å¤§
åħ· ä½ĵ
æ¸ħ æ¥
æ¸ħ æĻ°
è®¾ è®¡
çĬ ¶
è°· æŃĮ
en AI
é¦ĸ åħĪ
æ½ľ åľ¨
åĤ ¨
åİĭ åĬĽ
æĦıè¯Ĩ åĪ°
å¹¿ æ³Ľ
æİ§ åĪ¶
åĲ¸ å¼ķ
æµª è´¹
Op enAI
æĢĢ çĸĳ
AG I
Ky le
åĲĪä¼Ļ äºº
