{"<|endoftext|>":0,"<|pad|>":1,"<|unk|>":2,"<|bos|>":3,"<|eos|>":4,"!":5,"\"":6,"#":7,"$":8,"%":9,"&":10,"'":11,"(":12,")":13,"*":14,"+":15,",":16,"-":17,".":18,"/":19,"0":20,"1":21,"2":22,"3":23,"4":24,"5":25,"6":26,"7":27,"8":28,"9":29,":":30,";":31,"<":32,"=":33,">":34,"?":35,"@":36,"A":37,"B":38,"C":39,"D":40,"E":41,"F":42,"G":43,"H":44,"I":45,"J":46,"K":47,"L":48,"M":49,"N":50,"O":51,"P":52,"Q":53,"R":54,"S":55,"T":56,"U":57,"V":58,"W":59,"X":60,"Y":61,"Z":62,"[":63,"\\":64,"]":65,"^":66,"_":67,"`":68,"a":69,"b":70,"c":71,"d":72,"e":73,"f":74,"g":75,"h":76,"i":77,"j":78,"k":79,"l":80,"m":81,"n":82,"o":83,"p":84,"q":85,"r":86,"s":87,"t":88,"u":89,"v":90,"w":91,"x":92,"y":93,"z":94,"{":95,"|":96,"}":97,"~":98,"¡":99,"¢":100,"£":101,"¤":102,"¥":103,"¦":104,"§":105,"¨":106,"©":107,"ª":108,"«":109,"¬":110,"®":111,"¯":112,"°":113,"±":114,"²":115,"³":116,"´":117,"µ":118,"¶":119,"·":120,"¸":121,"¹":122,"º":123,"»":124,"¼":125,"½":126,"¾":127,"¿":128,"À":129,"Á":130,"Â":131,"Ã":132,"Ä":133,"Å":134,"Æ":135,"Ç":136,"È":137,"É":138,"Ê":139,"Ë":140,"Ì":141,"Í":142,"Î":143,"Ï":144,"Ð":145,"Ñ":146,"Ò":147,"Ó":148,"Ô":149,"Õ":150,"Ö":151,"×":152,"Ø":153,"Ù":154,"Ú":155,"Û":156,"Ü":157,"Ý":158,"Þ":159,"ß":160,"à":161,"á":162,"â":163,"ã":164,"ä":165,"å":166,"æ":167,"ç":168,"è":169,"é":170,"ê":171,"ë":172,"ì":173,"í":174,"î":175,"ï":176,"ð":177,"ñ":178,"ò":179,"ó":180,"ô":181,"õ":182,"ö":183,"÷":184,"ø":185,"ù":186,"ú":187,"û":188,"ü":189,"ý":190,"þ":191,"ÿ":192,"Ā":193,"ā":194,"Ă":195,"ă":196,"Ą":197,"ą":198,"Ć":199,"ć":200,"Ĉ":201,"ĉ":202,"Ċ":203,"ċ":204,"Č":205,"č":206,"Ď":207,"ď":208,"Đ":209,"đ":210,"Ē":211,"ē":212,"Ĕ":213,"ĕ":214,"Ė":215,"ė":216,"Ę":217,"ę":218,"Ě":219,"ě":220,"Ĝ":221,"ĝ":222,"Ğ":223,"ğ":224,"Ġ":225,"ġ":226,"Ģ":227,"ģ":228,"Ĥ":229,"ĥ":230,"Ħ":231,"ħ":232,"Ĩ":233,"ĩ":234,"Ī":235,"ī":236,"Ĭ":237,"ĭ":238,"Į":239,"į":240,"İ":241,"ı":242,"Ĳ":243,"ĳ":244,"Ĵ":245,"ĵ":246,"Ķ":247,"ķ":248,"ĸ":249,"Ĺ":250,"ĺ":251,"Ļ":252,"ļ":253,"Ľ":254,"ľ":255,"Ŀ":256,"ŀ":257,"Ł":258,"ł":259,"Ń":260,"ä¸":261,"ï¼":262,"çļ":263,"çļĦ":264,"ãĢ":265,"ä»":266,"äº":267,"ãĢĤ":268,"ï¼Į":269,"æľ":270,"æĪ":271,"åı":272,"ä½":273,"å¤":274,"è¿":275,"åĪ":276,"åħ":277,"æĺ":278,"æĪĳ":279,"åľ":280,"ä¼":281,"äºº":282,"æĺ¯":283,"å®":284,"âĢ":285,"ä»¬":286,"ä¸Ģ":287,"è®":288,"åĬ":289,"ĥ½":290,"åľ¨":291,"ä¹":292,"å°":293,"æľī":294,"è¿Ļ":295,"ä¸į":296,"å¾":297,"è¯":298,"æĹ":299,"åĲ":300,"âĢĶ":301,"ç»":302,"å¹":303,"èĥ½":304,"å¸":305,"çĶ":306,"éĩ":307,"æĪĳä»¬":308,"ä¼ļ":309,"æĸ":310,"æĿ":311,"éĢ":312,"¦ģ":313,"å·":314,"èĢ":315,"ä¸º":316,"è¦ģ":317,"å¤ļ":318,"åĽ":319,"ä¸ª":320,"ä»ĸ":321,"èµ":322,"æŃ":323,"å¤§":324,"æī":325,"æĬ":326,"æĥ":327,"åħ¬":328,"å¯":329,"ç§":330,"åĪĽ":331,"åĩ":332,"åı¯":333,"ä½ł":334,"åı¸":335,"å¼":336,"åħ¬åı¸":337,"è§":338,"æĹ¶":339,"æķ":340,"æĦ":341,"åº":342,"ä»¥":343,"ä½Ĩ":344,"å¦":345,"æĢ":346,"éĿ":347,"çĽ":348,"å¦Ĥ":349,"éĹ":350,"æ³":351,"æĿ¥":352,"å¥":353,"èµĦ":354,"çİ":355,"åĨ":356,"èĩ":357,"æŀ":358,"âĢĶâĢĶ":359,"äºĨ":360,"åĴ":361,"æĶ":362,"æĪĲ":363,"æĽ":364,"æ¯":365,"åĴĮ":366,"åį":367,"æľĢ":368,"å¯¹":369,"åĪ°":370,"åģ":371,"å¸¸":372,"äºĽ":373,"äºĭ":374,"æĽ´":375,"å·¥":376,"å¾Ī":377,"å¾Ĺ":378,"çľ":379,"é¢":380,"å¿":381,"è´":382,"ãĢģ":383,"è¡":384,"å½":385,"å¹´":386,"åŃ":387,"èĢĮ":388,"çİ°":389,"ä»ĸä»¬":390,"æĮ":391,"ä¸Ĭ":392,"äºİ":393,"ï¼ī":394,"éĻ":395,"ä½ľ":396,"æł":397,"ä¸Ģä¸ª":398,"ï¼Ī":399,"è¿ĩ":400,"åı¯èĥ½":401,"çī":402,"è¶":403,"ä¸Ń":404,"å¹¶":405,"åĢ":406,"åĳ":407,"æĸ¹":408,"å¥½":409,"åĩº":410,"åģļ":411,"ä¿":412,"éĩį":413,"æĬķ":414,"åĬĽ":415,"çĶ¨":416,"å°Ĩ":417,"å®ŀ":418,"åħ¶":419,"æ³ķ":420,"æķ°":421,"å§":422,"æŀľ":423,"åİ":424,"ä¸ļ":425,"æĥ³":426,"å§ĭ":427,"æ²":428,"æĭ":429,"è®¤":430,"çĶŁ":431,"éĥ½":432,"æĦı":433,"éĿŀ":434,"æİ":435,"ç§į":436,"éķ":437,"ç®":438,"åıĳ":439,"éķ¿":440,"åī":441,"æŃ£":442,"èĩª":443,"æĥħ":444,"æ¬":445,"çĦ":446,"éĢļ":447,"å°±":448,"ä¹Ł":449,"çķ":450,"ç»ı":451,"çĦ¶":452,"æĻ":453,"åĮ":454,"éľ":455,"å®¶":456,"ä¾":457,"æ¯Ķ":458,"æľŁ":459,"åĽł":460,"éĹ®":461,"çŃ":462,"ä¸İ":463,"èĢħ":464,"æīĢ":465,"åħ³":466,"æĬķèµĦ":467,"åīį":468,"çĲ":469,"ä½ķ":470,"å¦Ĥæŀľ":471,"å½ĵ":472,"éľĢ":473,"ç¾":474,"å®ĥ":475,"è¯´":476,"æĸ°":477,"å¢":478,"èģ":479,"åĲİ":480,"ç¡":481,"ç³":482,"é¡":483,"åºĶ":484,"è½":485,"è¡Į":486,"éļ":487,"æĪĸ":488,"éĹ´":489,"è®¤ä¸º":490,"éĤ":491,"éĩįè¦ģ":492,"æĮģ":493,"è®¸":494,"æľº":495,"æĹł":496,"ç¾İ":497,"åĪĿ":498,"æµ":499,"ä¹Ī":500,"çĤ":501,"å·¥ä½ľ":502,"å±":503,"æĢ§":504,"éľĢè¦ģ":505,"è¿Ľ":506,"é¢ĺ":507,"ç¨":508,"âĢľ":509,"åĪĨ":510,"âĢĿ":511,"æŃ¤":512,"è°":513,"ï¼ļ":514,"åľ°":515,"å¼Ģ":516,"çĲĨ":517,"ä¹ĭ":518,"ç«":519,"åĲĮ":520,"æ²¡":521,"éĤ£":522,"åĪĽå§ĭ":523,"åĽ½":524,"åĢ¼":525,"éĿŀå¸¸":526,"åı¯ä»¥":527,"çĤ¹":528,"çļĦäºº":529,"æľ¬":530,"å¢ŀ":531,"åĪĽå§ĭäºº":532,"å»":533,"å®ļ":534,"çĽ¸":535,"çľŁ":536,"çľĭ":537,"åĬ¨":538,"éĩı":539,"æı":540,"çī¹":541,"éģ":542,"æĬĢ":543,"éĹ®é¢ĺ":544,"è®º":545,"ä¹İ":546,"éĿ¢":547,"ä»»":548,"ç¡®":549,"åĵ":550,"ä¸ĭ":551,"çº":552,"ä½¿":553,"è¯¥":554,"çŁ":555,"ä»·":556,"è§£":557,"æ°":558,"éĶ":559,"åıĺ":560,"å¼ı":561,"å»º":562,"ä»İ":563,"åĩł":564,"æıĲ":565,"åŁ":566,"ĸçķ":567,"éĢł":568,"«ĺ":569,"é«ĺ":570,"éĺ":571,"æĹ¶éĹ´":572,"åħ¶ä»ĸ":573,"å°ĳ":574,"åĪĿåĪĽ":575,"æ²¡æľī":576,"åĲĪ":577,"äºĭæĥħ":578,"æĺİ":579,"éļ¾":580,"è®©":581,"æĦŁ":582,"ä¼ĺ":583,"åŃ¦":584,"ä¿Ŀ":585,"æ¯ı":586,"å¤ļæķ°":587,"åº¦":588,"æ¬¡":589,"äº§":590,"è®¡":591,"èĤ":592,"çĽ®":593,"éĩĳ":594,"æł·":595,"ä¿¡":596,"åĨ³":597,"ä¸Ķ":598,"**":599,"çł":600,"èĩ³":601,"è®¸å¤ļ":602,"å¢ŀéķ¿":603,"ç½":604,"éĥ":605,"åħ¥":606,"åĬ©":607,"ä¸ĸçķ":608,"è¿ĺ":609,"ä¸ĸçķĮ":610,"éĥ¨":611,"20":612,"æ´":613,"æĿĥ":614,"è¾":615,"åĬł":616,"è¿ĻäºĽ":617,"ç¨ĭ":618,"æŁ":619,"åħ¨":620,"ä¸ĢäºĽ":621,"åºĶè¯¥":622,"åĬŁ":623,"ï¼īãĢĤ":624,"ç®¡":625,"éĽ":626,"æ³¨":627,"åĳĺ":628,"å¤§å¤ļæķ°":629,"å¤©":630,"ç±":631,"åĪ©":632,"éĢļå¸¸":633,"åĮĸ":634,"æĪĳè®¤ä¸º":635,"ç§ĳ":636,"è¢":637,"Ģä¹Ī":638,"ä»Ģä¹Ī":639,"äººä»¬":640,"ä»»ä½ķ":641,"åĿ":642,"åıª":643,"ç±»":644,"ï¼Ľ":645,"ä¼¼":646,"å¤§çļĦ":647,"ä¸»":648,"æĪĲåĬŁ":649,"æĻº":650,"è¢«":651,"åĸ":652,"æľ¯":653,"ä½ĵ":654,"æķĪ":655,"å·²":656,"å¤ĸ":657,"å·±":658,"æĶ¯":659,"çŃī":660,"å®Į":661,"å¥½çļĦ":662,"ä¾ĭ":663,"çŁ¥":664,"æľª":665,"è¿Ļä¸Ģ":666,"èµ·":667,"åİ»":668,"èĩªå·±":669,"æ±":670,"ç¤":671,"æĺĵ":672,"æ¸":673,"å¤Ł":674,"åĪ¶":675,"ç®Ĺ":676,"YC":677,"ç©":678,"çĿ":679,"èİ":680,"åĲĳ":681,"å¿ĥ":682,"éģĵ":683,"æľĽ":684,"æĢ»":685,"éĻ©":686,"çľŁæŃ£":687,"æĶ¿":688,"æĸ¹å¼ı":689,"ç¬":690,"é£":691,"è¿Ļç§į":692,"éĩĮ":693,"æĽ´å¤ļ":694,"æīĢæľī":695,"ä¸įæĺ¯":696,"çİ°åľ¨":697,"ç»Ń":698,"å¹³":699,"åį³":700,"ç¼":701,"å°½":702,"è¯ķ":703,"éĢī":704,"å±ķ":705,"æĬĢæľ¯":706,"æº":707,"èİ·":708,"èĢĥ":709,"ç³»":710,"æŁĲ":711,"æ¶":712,"çļĦåħ¬åı¸":713,"åĬ¡":714,"å¾Īå¤ļ":715,"åŃĲ":716,"ç¾İåĽ½":717,"å¤±":718,"è®®":719,"çļĦæĺ¯":720,"ä»¶":721,"çī©":722,"åĽłä¸º":723,"åĪĿåĪĽåħ¬åı¸":724,"è¡¨":725,"è¶Ĭ":726,"é¡¹":727,"è·":728,"ç»Ī":729,"æĬķèµĦèĢħ":730,"å¿ħ":731,"èĤ¡":732,"åıĸ":733,"ä½į":734,"æĻºèĥ½":735,"æģ":736,"èĻ":737,"åħĥ":738,"æİ¥":739,"éĶĻ":740,"ä¼ģ":741,"è¿Ļä¸ª":742,"è§ģ":743,"æĦ¿":744,"ç«ĭ":745,"ç½ĳ":746,"å°ı":747,"æī¾":748,"æīį":749,"æĢĿ":750,"åİŁ":751,"æį":752,"å¦Ĥä½ķ":753,"æĺ¾":754,"æĶ¹":755,"ä¼ģä¸ļ":756,"èŀ":757,"ä¸ªäºº":758,"æ´»":759,"çĿĢ":760,"çļĦäºĭæĥħ":761,"äº¤":762,"è¿ľ":763,"ä¸įä¼ļ":764,"æĪĲä¸º":765,"å¦Ĥæŀľä½ł":766,"æºĲ":767,"èŀį":768,"å®¹":769,"çĸ":770,"ä¼¼ä¹İ":771,"æ¨":772,"è±":773,"èĬ":774,"å¿«":775,"éĥ¨åĪĨ":776,"åĪ«":777,"å¸Į":778,"éĢŁ":779,"åĵģ":780,"å·²ç»ı":781,"èī":782,"ä»į":783,"åıĬ":784,"åıĹ":785,"åĨħ":786,"èģĶ":787,"æ¨¡":788,"ä¸¤":789,"å¾Ģ":790,"çłĶ":791,"åĥ":792,"è¿Ĳ":793,"æĹ©":794,"å¸ģ":795,"æĸĩ":796,"åĨµ":797,"æŀģ":798,"å¸ĮæľĽ":799,"å¤ª":800,"æŃ¥":801,"é£İ":802,"ä½İ":803,"ä¸Ģå®¶":804,"å¸®":805,"æĹłæ³ķ":806,"ç¤¾":807,"ç¬¬":808,"ç¥":809,"ä»£":810,"è§ī":811,"ä¹ī":812,"é¢Ĩ":813,"éĢļè¿ĩ":814,"ä»·åĢ¼":815,"åĥı":816,"æ¡":817,"ä»Ĭ":818,"ä¼°":819,"è¯Ĩ":820,"æĥ³æ³ķ":821,"ä¾Ľ":822,"éĤ£äºĽ":823,"å¸®åĬ©":824,"éª":825,"è¿Ļæĺ¯":826,"æĶ¶":827,"æĥħåĨµ":828,"ç¾İåħĥ":829,"èİ·å¾Ĺ":830,"å¤Ħ":831,"åľº":832,"è¯¯":833,"å¼º":834,"åĳ½":835,"ç©¶":836,"åħ·":837,"ç»Ł":838,"çĶ±":839,"åĪĽéĢł":840,"åĩłä¹İ":841,"çłĶç©¶":842,"è¶ħ":843,"æĸ¹éĿ¢":844,"è§£åĨ³":845,"åŀ":846,"éĴ":847,"æĪ·":848,"ç§Ģ":849,"åĪĽä¸ļ":850,"è¶³":851,"æİ¨":852,"å¼Ģå§ĭ":853,"ä¼ĺç§Ģ":854,"å¸Ĥ":855,"åĽŀ":856,"åĳĺå·¥":857,"åħĪ":858,"ä¸Ģç§į":859,"åı¯èĥ½ä¼ļ":860,"ç»ıæµ":861,"åŁº":862,"è±¡":863,"ç»ıæµİ":864,"00":865,"æĻ®":866,"æ±Ĥ":867,"çİĩ":868,"æłĩ":869,"æ¬¢":870,"¥¿":871,"æ®":872,"è¥¿":873,"è¿Ļæł·":874,"æľĢç»Ī":875,"ï¼īï¼Į":876,"è¶£":877,"å°½ç®¡":878,"ï¼Ł":879,"ä»¤":880,"äºī":881,"åıį":882,"ç»ĵ":883,"é¡»":884,"å¿ħé¡»":885,"èŀįèµĦ":886,"éªĮ":887,"äººç±»":888,"æŀĦ":889,"é¢Ħ":890,"æµģ":891,"è°Ī":892,"åĸľ":893,"æ¸ħ":894,"re":895,"ªåĬĽ":896,"å¤į":897,"ä¼Ł":898,"åĬªåĬĽ":899,"æŃ¢":900,"è§Ĥ":901,"è§Ħ":902,"åŃĺ":903,"æł¼":904,"ç´":905,"åĬŀ":906,"èµĦéĩĳ":907,"äº§åĵģ":908,"ä¸ľ":909,"æĪ¿":910,"èĩ´":911,"åŁŁ":912,"èµ·æĿ¥":913,"ä¸įè¦ģ":914,"çĽĬ":915,"åįķ":916,"æĮĩ":917,"å®ŀçİ°":918,"æıĲä¾Ľ":919,"æ¡Ī":920,"åĶ":921,"ä¸ĵ":922,"ä½ı":923,"ç»Ļ":924,"åºľ":925,"å½±":926,"ç³Ł":927,"æ°ĳ":928,"æĶ¿åºľ":929,"æĦ¿æĦı":930,"åĻ":931,"ç¦":932,"åĽ¢":933,"èĢĮä¸Ķ":934,"åĵį":935,"é¡¹çĽ®":936,"å®¹æĺĵ":937,"è´¹":938,"çĽ¸ä¿¡":939,"ä¿ĿæĮģ":940,"ç§ĳæĬĢ":941,"çŁ¥éģĵ":942,"æĢĿèĢĥ":943,"é¢ĨåŁŁ":944,"çĪ":945,"è¿ĳ":946,"çĽ´":947,"å¦ĤæŃ¤":948,"åĨį":949,"æĭ¥":950,"è®¡ç®Ĺ":951,"ä¸ľè¥¿":952,"å½±åĵį":953,"ä»ħ":954,"è¯Ŀ":955,"éĢĤ":956,"å·¨":957,"éĻ¤":958,"éĻħ":959,"çĶ¨æĪ·":960,"åħ³äºİ":961,"æĶ¯æĮģ":962,"è¿Ļä¸ĢçĤ¹":963,"çĥ":964,"è®¾":965,"è¯·":966,"çĶµ":967,"æĬ¥":968,"çĶŁæ´»":969,"ç³ķ":970,"è½®":971,"é£İéĻ©":972,"ä¼°åĢ¼":973,"æĭ¥æľī":974,"èĥ½å¤Ł":975,"ä½łçļĦ":976,"æĿ¥è¯´":977,"æĶ¾":978,"éķ¿æľŁ":979,"æľªæĿ¥":980,"åĸľæ¬¢":981,"ç³Łç³ķ":982,"åĻ¨":983,"èĦ":984,"åı¦":985,"åĲ¬":986,"åĲį":987,"æĸŃ":988,"è§Ĩ":989,"éĴ±":990,"in":991,"on":992,"é¦":993,"åħ±":994,"ç»§":995,"åĽ¾":996,"å¤§éĩı":997,"æĥĬ":998,"æĭ©":999,"åıĳçĶŁ":1000,"åĮº":1001,"åĽłæŃ¤":1002,"éĢīæĭ©":1003,"æ¶Ī":1004,"æ®µ":1005,"åĪĴ":1006,"è®°":1007,"æĪĳä»¬çļĦ":1008,"éĻĲ":1009,"å¹¶ä¸į":1010,"å®ĥä»¬":1011,"åĪĿåĪĽä¼ģä¸ļ":1012,"å®ĮæĪĲ":1013,"ç»§ç»Ń":1014,"°éļ¾":1015,"å£":1016,"èĲ":1017,"çļĦæľĢ":1018,"æľĪ":1019,"å¯¼":1020,"ä»¥åıĬ":1021,"è´¨":1022,"åİŁåĽł":1023,"èĬ±":1024,"at":1025,"èĳ":1026,"äºĴ":1027,"æľį":1028,"åıĭ":1029,"åĬ¿":1030,"æīĢä»¥":1031,"ä»įçĦ¶":1032,"AI":1033,"çĹ":1034,"ä¸įåĲĮ":1035,"å¯Į":1036,"éļı":1037,"å»ºè®®":1038,"éĺŁ":1039,"éĶĻè¯¯":1040,"æį®":1041,"åŀĭ":1042,"ä»¤äºº":1043,"åıĤ":1044,"æīĭ":1045,"åįģ":1046,"æŃ£åľ¨":1047,"å°±æĺ¯":1048,"èģĮ":1049,"æľºåĻ¨":1050,"çº§":1051,"åıĺå¾Ĺ":1052,"201":1053,"ç§ĳåŃ¦":1054,"ç¤¾ä¼ļ":1055,"an":1056,"çĬ":1057,"çĻ":1058,"åĢĻ":1059,"çº¦":1060,"éĽĨ":1061,"æī¾åĪ°":1062,"ç¥¨":1063,"èĥ":1064,"ĠC":1065,"çļĦå·¥ä½ľ":1066,"æĪĺ":1067,"åĪĩ":1068,"åĪĻ":1069,"æĿ¡":1070,"åĪĽæĸ°":1071,"è½¬":1072,"çľĭåĪ°":1073,"åĽ¢éĺŁ":1074,"it":1075,"èĭ":1076,"ä½³":1077,"æĹ¥":1078,"èĥ½åĬĽ":1079,"å¸¦":1080,"è´¥":1081,"åı¯èĥ½æĺ¯":1082,"å®ŀéĻħ":1083,"è¾¾":1084,"er":1085,"èį":1086,"åĲ¦":1087,"æķĻ":1088,"ä½ľä¸º":1089,"æĸ¹æ³ķ":1090,"æŃ£ç¡®":1091,"æ¯Ķçī¹":1092,"è®¡åĪĴ":1093,"æĹ©æľŁ":1094,"ä¸ĩ":1095,"äººçļĦ":1096,"æīĵ":1097,"æĭħ":1098,"å½ĵçĦ¶":1099,"æĮģç»Ń":1100,"è°·":1101,"åĽ½å®¶":1102,"çĽ®åīį":1103,"åĿļ":1104,"åį³ä½¿":1105,"æ¯Ķçī¹å¸ģ":1106,"è½¯":1107,"èĩ³å°ĳ":1108,"æħ":1109,"ä¸ī":1110,"ä¼ł":1111,"æľīå¾Īå¤ļ":1112,"æľīè¶£":1113,"è¿ĩåİ»":1114,"åĳ¨":1115,"ä¹ĭä¸Ģ":1116,"è·¯":1117,"èº":1118,"éħ":1119,"æĺ¯ä¸Ģä¸ª":1120,"å¥³":1121,"åĨ³å®ļ":1122,"ç³»ç»Ł":1123,"å¸Ĥåľº":1124,"ac":1125,"åĭ":1126,"çļĦä¸ľè¥¿":1127,"åħ´":1128,"æĪĳçļĦ":1129,"å®ī":1130,"èĥ½æºĲ":1131,"åĨĻ":1132,"è´¢":1133,"åıĳçİ°":1134,"çķĻ":1135,"çĦ¶åĲİ":1136,"è¿Ľè¡Į":1137,"ä¹ĭåīį":1138,"ä½¿çĶ¨":1139,"å®Įåħ¨":1140,"ä¾ĭå¦Ĥ":1141,"æĢ»æĺ¯":1142,"èĻĳ":1143,"en":1144,"çĭ":1145,"çļĦæĸ¹å¼ı":1146,"äº¿":1147,"è¿ĻéĩĮ":1148,"æķ´":1149,"å¼Ģåıĳ":1150,"ç¡®å®ŀ":1151,"æĦŁåĪ°":1152,"å¤§å¤ļæķ°äºº":1153,"æĶ¹åıĺ":1154,"èģĶç½ĳ":1155,"èĲ¥":1156,"èº«":1157,"10":1158,"or":1159,"¿Ģ":1160,"åķ":1161,"æ½":1162,"æ¿Ģ":1163,"ä¹Ĳ":1164,"åĩı":1165,"åħ¬åı¸çļĦ":1166,"ä½ĨæĪĳ":1167,"ä»ĸä»¬çļĦ":1168,"çĲĥ":1169,"éĩįè¦ģçļĦ":1170,"æľºä¼ļ":1171,"çŁŃ":1172,"åĸĦ":1173,"å¤±è´¥":1174,"ä¸ĵæ³¨":1175,"äºĴèģĶç½ĳ":1176,"ar":1177,"æ¼":1178,"é©":1179,"ãĢĤâĢĿ":1180,"è®¨":1181,"ä¹ł":1182,"å°Ŀ":1183,"è¯ģ":1184,"æĸ¯":1185,"ç§»":1186,"éĿ©":1187,"æĪĲæľ¬":1188,"åİĨ":1189,"åıĳå±ķ":1190,"è¿Ľå±ķ":1191,"ä»·æł¼":1192,"èĤ¡æĿĥ":1193,"è½¯ä»¶":1194,"å¥³æĢ§":1195,"om":1196,"¨Ģ":1197,"è¨Ģ":1198,"é»":1199,"å®¤":1200,"ä¸Ģæ¬¡":1201,"å¾ħ":1202,"èµĦåĬ©":1203,"äºĭå®ŀ":1204,"èĢĮä¸įæĺ¯":1205,"æĭĽ":1206,"çľĭèµ·æĿ¥":1207,"éĽĩ":1208,"èĢĥèĻĳ":1209,"ç¦»":1210,"çĪ±":1211,"å°Ŀè¯ķ":1212,"ç»Ŀ":1213,"åį´":1214,"è´Ń":1215,"åĢį":1216,"åĳĬ":1217,"ç«ŀ":1218,"æĤ":1219,"ç²":1220,"ä¸´":1221,"å¸ĥ":1222,"å¯Ĩ":1223,"æ³¡":1224,"å¾Īéļ¾":1225,"å¢ĥ":1226,"è½»":1227,"æ¯ıä¸ªäºº":1228,"ä¸»è¦ģ":1229,"è¡¨çİ°":1230,"èī²":1231,"è¶³å¤Ł":1232,"è£":1233,"ĭåıĭ":1234,"çļĦäºĭ":1235,"æľĭåıĭ":1236,"å®¢":1237,"ç»ľ":1238,"æĪĳä»¬éľĢè¦ģ":1239,"åĽ°éļ¾":1240,"åĪĽåĬŀ":1241,"æĹ¶åĢĻ":1242,"çİ¯":1243,"æ²«":1244,"æĦıä¹ī":1245,"æ¬¾":1246,"æĬķèµĦäºº":1247,"è¡ĮåĬ¨":1248,"æĹłè®º":1249,"éĤ£ä¹Ī":1250,"æĦŁè§ī":1251,"çł´":1252,"ç½ĳç»ľ":1253,"è®¡ç®Ĺæľº":1254,"æ³¡æ²«":1255,"Â·":1256,"æ»":1257,"çģ":1258,"ä»ĺ":1259,"å°Ķ":1260,"å¹¸":1261,"å¸Ī":1262,"çĶļ":1263,"å·®":1264,"ç§°":1265,"åĩĨ":1266,"å¼ķ":1267,"ä¸ŃçļĦ":1268,"åĩºçİ°":1269,"åħ³æ³¨":1270,"çī¹åĪ«":1271,"æ°Ķ":1272,"ç¼ĸ":1273,"èĻ½":1274,"å¾Ģå¾Ģ":1275,"ä¼ĺç§ĢçļĦ":1276,"æľįåĬ¡":1277,"ç«ŀäºī":1278,"is":1279,"le":1280,"æ·":1281,"çª":1282,"ĹæĻ®":1283,"ãĢĤ[":1284,"ãĢĤï¼ī":1285,"æľĹæĻ®":1286,"æĪĳä»¬å°Ĩ":1287,"éĩįå¤§":1288,"æµĭ":1289,"ç¨İ":1290,"çī¹æľĹæĻ®":1291,"çº¿":1292,"æ°¸":1293,"éĶ®":1294,"äº§çĶŁ":1295,"è§īå¾Ĺ":1296,"ä»Ĭå¤©":1297,"è§Ħæ¨¡":1298,"é¦ĸ":1299,"å¸¦æĿ¥":1300,"è®¨è®º":1301,"Âł":1302,"å¤ĩ":1303,"ä¹°":1304,"å¾ĭ":1305,"è¯ī":1306,"çĶ³":1307,"æĽ¾":1308,"å·¥æĻºèĥ½":1309,"å¹¶ä¸Ķ":1310,"åĮħ":1311,"ä¾¿":1312,"åħ³éĶ®":1313,"èģª":1314,"éĶĢ":1315,"æŁĲç§į":1316,"è°Īè®º":1317,"åŃĺåľ¨":1318,"åįģå¹´":1319,"åķĨ":1320,"çĶļèĩ³":1321,"19":1322,"å°¤":1323,"åĲĦ":1324,"è¦ģæ±Ĥ":1325,"å¥ĩ":1326,"åįĩ":1327,"äºĭä¼ļ":1328,"éĻį":1329,"æĬķåħ¥":1330,"çķ¥":1331,"å½ĵåīį":1332,"è¿ĽæŃ¥":1333,"è°ĥ":1334,"éĺ¶":1335,"åıªæĺ¯":1336,"æĺ¾çĦ¶":1337,"äº¤æĺĵ":1338,"ä¼Łå¤§çļĦ":1339,"åĶ®":1340,"æ½ľ":1341,"æ¼Ķ":1342,"èģªæĺİ":1343,"çħ":1344,"æĪĳåľ¨":1345,"ä¸ĢåĪĩ":1346,"ç»Ħ":1347,"æĢģ":1348,"åģľ":1349,"å¾Ĺå¤ļ":1350,"æł¹":1351,"ç»ıå¸¸":1352,"èģĺ":1353,"ç¡ħ":1354,"æ°´":1355,"åĲĪä½ľ":1356,"çĽ®æłĩ":1357,"ç¼º":1358,"ä¼Łå¤§":1359,"èĳ£":1360,"è´¢å¯Į":1361,"æĭĽèģĺ":1362,"æ°¸è¿ľ":1363,"bo":1364,"äºĮ":1365,"è¯»":1366,"æī¹":1367,"å¯»":1368,"è´§":1369,"æĥ³è±¡":1370,"åĢ¼å¾Ĺ":1371,"èĻ½çĦ¶":1372,"çĶ³è¯·":1373,"ir":1374,"ri":1375,"äº«":1376,"äºĪ":1377,"åı²":1378,"åħį":1379,"æĪĳä¸į":1380,"æľīäºĽ":1381,"æľīä¸Ģä¸ª":1382,"æĹ§":1383,"æĪĳä»¬åľ¨":1384,"æī¿":1385,"çĽĳ":1386,"æľĢå¥½çļĦ":1387,"è´Ł":1388,"è¡¡":1389,"å®ŀéªĮ":1390,"ä¹ĭéĹ´":1391,"è®¸å¤ļäºº":1392,"ç¤º":1393,"èĬĤ":1394,"å¿«éĢŁ":1395,"éļıçĿĢ":1396,"åıĤä¸İ":1397,"ace":1398,"ç²¾":1399,"ç¡ħè°·":1400,"èĳ£äºĭä¼ļ":1401,"æľīæķĪ":1402,"è¯Ħ":1403,"åģļåĩº":1404,"ç®Ģ":1405,"å°±ä¼ļ":1406,"æĻ¯":1407,"çŃĶ":1408,"åħ³ç³»":1409,"å±±":1410,"åĲĮæĹ¶":1411,"å¢ŀåĬł":1412,"æŀĦå»º":1413,"çªģ":1414,"è´§å¸ģ":1415,"]ãĢĤ":1416,"ç¢":1417,"èĪ":1418,"ãĢĤï¼Ī":1419,"åĪ»":1420,"ä¼Ĺ":1421,"æĺ¯åĲ¦":1422,"ä¸įæĸŃ":1423,"éĩĬ":1424,"å¼ł":1425,"æĽ´å¥½":1426,"æĮī":1427,"æİĪ":1428,"ä¹Łæĺ¯":1429,"çŃ¹":1430,"éĺħ":1431,"éļ¾ä»¥":1432,"åŃ¦ä¹ł":1433,"æĪĲåĬŁçļĦ":1434,"æŁĲäºĽ":1435,"åıĸå¾Ĺ":1436,"æİ¥åıĹ":1437,"è¿Ļæł·åģļ":1438,"éĻ¤äºĨ":1439,"çĥŃ":1440,"èģĮä¸ļ":1441,"äº¿ç¾İåħĥ":1442,"æ¯ıä¸ªäººéĥ½":1443,"å°¤åħ¶":1444,"Air":1445,"èĸ":1446,"ä»½":1447,"è¿½":1448,"è®¶":1449,"æĬĬ":1450,"èµĦæºĲ":1451,"å·¥ç¨ĭ":1452,"æĮĳ":1453,"åģļä»Ģä¹Ī":1454,"åħ¶ä¸Ń":1455,"æķ°éĩı":1456,"æĥ³è¦ģ":1457,"éĥ½æĺ¯":1458,"çŃĸçķ":1459,"å»ºç«ĭ":1460,"éĩĳå±±":1461,"è¾ĥ":1462,"åĬłåħ¥":1463,"æ³¨æĦı":1464,"è¯ķåĽ¾":1465,"èĤ¡ç¥¨":1466,"æĶ¶åħ¥":1467,"æĥħåĨµä¸ĭ":1468,"åı¦ä¸Ģä¸ª":1469,"æĥĬè®¶":1470,"å®ŀéĻħä¸Ĭ":1471,"çİ¯å¢ĥ":1472,"éĺ¶æ®µ":1473,"æĹ§éĩĳå±±":1474,"Airb":1475,"çŃĸçķ¥":1476,"nb":1477,"¯ä¸Ģ":1478,"»çĸ":1479,"åĤ":1480,"æĵ":1481,"æļ":1482,"äººæīį":1483,"æľīæĹ¶":1484,"æĸ½":1485,"ä¸ºä»Ģä¹Ī":1486,"æĬ¤":1487,"ä½łåı¯ä»¥":1488,"åŃĹ":1489,"çŃĸ":1490,"åħ³éĩįè¦ģ":1491,"âĢĿãĢĤ":1492,"çĲĨè§£":1493,"çĽ¸å½ĵ":1494,"éģ¿":1495,"èĩ³åħ³éĩįè¦ģ":1496,"åıªæľī":1497,"ä½ıæĪ¿":1498,"åĩıå°ĳ":1499,"åĳĬè¯ī":1500,"æĮĳæĪĺ":1501,"Airbnb":1502,"»çĸĹ":1503,"ä¸¥":1504,"çļĦæĥ³æ³ķ":1505,"æī§":1506,"åģļåĪ°":1507,"ä¹Łè®¸":1508,"æ¯Ķå¦Ĥ":1509,"æĪĸèĢħ":1510,"éĿ¢ä¸´":1511,"åıĺåĮĸ":1512,"ä¼ĺåħĪ":1513,"ä¼ĺåĬ¿":1514,"è§ģè¿ĩ":1515,"éĢŁåº¦":1516,"æ¨¡å¼ı":1517,"å·¨å¤§":1518,"å·¨å¤§çļĦ":1519,"å¯¼èĩ´":1520,"çĹħ":1521,"æīĵéĢł":1522,"åİĨåı²":1523,"çĽĳç®¡":1524,"ok":1525,"ro":1526,"ï¼ģ":1527,"åħĭ":1528,"äººå·¥æĻºèĥ½":1529,"å®³":1530,"åĬ±":1531,"æī©":1532,"ä»¥ä¸ĭ":1533,"æĢķ":1534,"éĹ¨":1535,"åį±":1536,"å¹´çļĦ":1537,"æĸ¹æ¡Ī":1538,"æķ°æį®":1539,"åİĭ":1540,"æĦıè¯Ĩ":1541,"é¡º":1542,"æĪĸè®¸":1543,"èĤ²":1544,"ç¨ĭåº¦":1545,"åħ¨çĲĥ":1546,"åĿı":1547,"ç¼ĵ":1548,"æīįèĥ½":1549,"çĸĳ":1550,"åŁºæľ¬":1551,"å£°":1552,"çĬ¯":1553,"éĿ©åĳ½":1554,"äºĭå®ŀä¸Ĭ":1555,"æ·±":1556,"çħ§":1557,"å®ŀéªĮå®¤":1558,"èĸª":1559,"*ï¼ļ":1560,"100":1561,"Ġ**":1562,"çļĦä¸Ģ":1563,"åı£":1564,"ä¼Ļ":1565,"æĺ¯æĪĳ":1566,"ç»´":1567,"ä¸ºäºĨ":1568,"æŃ»":1569,"åĩ»":1570,"æľĢåĲİ":1571,"æľĢè¿ĳ":1572,"åģĩ":1573,"åĮ»çĸĹ":1574,"åľ°ä½į":1575,"ä½¿åĳ½":1576,"åĩłå¹´":1577,"åħ¶ä»ĸäºº":1578,"åĲĪçĲĨ":1579,"èĩªå·±çļĦ":1580,"æģ¯":1581,"å¤Ħäºİ":1582,"å¤ĦçĲĨ":1583,"åĽŀæĬ¥":1584,"red":1585,"ç´§":1586,"åĶ¯ä¸Ģ":1587,"å£«":1588,"æķĻèĤ²":1589,"ä¸ĩç¾İåħĥ":1590,"çĭ¬":1591,"ä¸ĵæ³¨äºİ":1592,"Face":1593,"al":1594,"dit":1595,"el":1596,"ãĢĤ**":1597,"ä½£":1598,"è¿¹":1599,"åľ¨äºİ":1600,"ä¹ħ":1601,"æĹ¢":1602,"éĩĩ":1603,"æĪĳä»¬ä¸į":1604,"ç§¯":1605,"ä½łå¿ħé¡»":1606,"å¼Ĥ":1607,"æľĢåĪĿ":1608,"é¢Ŀ":1609,"èĢĮéĿŀ":1610,"åĩºèī²":1611,"è®¤è¯Ĩ":1612,"ä¹Łä¼ļ":1613,"æĸ°çļĦ":1614,"è°¢":1615,"åĲĮæł·":1616,"çľŁçļĦ":1617,"ä¿ĿéĻ©":1618,"è¿ĺæľī":1619,"ä¸ĸçķĮä¸Ĭ":1620,"æĶ¯ä»ĺ":1621,"æĸĩåĮĸ":1622,"åħ·æľī":1623,"éħį":1624,"ç§»æ°ĳ":1625,"é»ĳ":1626,"éĽĩä½£":1627,"æ»¡":1628,"book":1629,"å¯»æī¾":1630,"Facebook":1631,"50":1632,"MI":1633,"SMI":1634,"ĠĠ":1635,"ä¸¾":1636,"çļĦæĸ°":1637,"çļĦéĹ®é¢ĺ":1638,"åħģ":1639,"æĪĳä¼ļ":1640,"ä¹ı":1641,"å¾®":1642,"å¹¿":1643,"æĪĳä»¬åı¯ä»¥":1644,"æĪĳä»¬åºĶè¯¥":1645,"ç§Ł":1646,"ä½łä¼ļ":1647,"ä½Ĩè¿Ļ":1648,"æĿ¥èĩª":1649,"åįı":1650,"äºĭçī©":1651,"æĽ´å¥½çļĦ":1652,"å¿µ":1653,"æł¸":1654,"æĸ¹åĲĳ":1655,"æİ§":1656,"å±ŀ":1657,"åľ°æĸ¹":1658,"çľŁå®ŀ":1659,"å°ĳæķ°":1660,"æĺİç¡®":1661,"æ¯ıå¹´":1662,"æŁ¥":1663,"ç®¡çĲĨ":1664,"ä¾ĭåŃĲ":1665,"åĪ¶éĢł":1666,"ç©º":1667,"ç¬¬äºĮ":1668,"æĮĩæķ°":1669,"ç¦ı":1670,"èĦĳ":1671,"æľºåĻ¨æĻºèĥ½":1672,"æİĪäºĪ":1673,"çŃ¹éĽĨ":1674,"æ£":1675,"Ġ[":1676,"åı¥":1677,"åıĪ":1678,"å¤´":1679,"åħħ":1680,"ä¸Ģå¹´":1681,"è®²":1682,"åĲ¸":1683,"æĿĤ":1684,"è¦ģä¹Ī":1685,"ä¸ªæľĪ":1686,"ä½Ĩåľ¨":1687,"æĿ¥è¶Ĭ":1688,"æĪĲåĳĺ":1689,"å¯¹äºİ":1690,"å½Ĵ":1691,"çīĩ":1692,"åĳ³":1693,"æĭ¬":1694,"çĶŁçī©":1695,"åħ³å¿ĥ":1696,"èģļ":1697,"è¡Įä¸ļ":1698,"ç«ł":1699,"ä»»åĬ¡":1700,"ç¡®ä¿Ŀ":1701,"æĦŁè°¢":1702,"æĶ¿çŃĸ":1703,"è¶ĬæĿ¥è¶Ĭ":1704,"è¿Ļä¸ªéĹ®é¢ĺ":1705,"èī¯":1706,"æĸĩç«ł":1707,"ç»ıæµİå¢ŀéķ¿":1708,"æĻ®éĢļ":1709,"è½®èŀįèµĦ":1710,"ç³Łç³ķçļĦ":1711,"çļĦæľĢä½³":1712,"è´¨éĩı":1713,"èĳĹ":1714,"çĻ¾":1715,"æĿ¡æ¬¾":1716,"å®īåħ¨":1717,"çŁŃæľŁ":1718,"åĮħæĭ¬":1719,"æī§è¡Į":1720,"reddit":1721,"åħģè®¸":1722,"bin":1723,"å¨":1724,"çĮ":1725,"çļĦä¸Ģä¸ª":1726,"çļĦåĪĽå§ĭäºº":1727,"ãĢĬ":1728,"ãĢĭ":1729,"âĢ¦":1730,"ä¸Ģå®ļ":1731,"ä¸įåĪ°":1732,"å¹ħ":1733,"åĽ´":1734,"ä»ĸçļĦ":1735,"ä»ĸäºº":1736,"ä½łä¸į":1737,"åºı":1738,"åºķ":1739,"æľĢå¤§çļĦ":1740,"å¿½":1741,"çİ°å®ŀ":1742,"åĬĽçļĦ":1743,"å°Ĩæĺ¯":1744,"æ²»":1745,"éĥ½ä¼ļ":1746,"æĦıåĳ³":1747,"èĩªçĶ±":1748,"æľŁæĿĥ":1749,"è½¦":1750,"éĩįè¦ģçļĦæĺ¯":1751,"æµª":1752,"ï¼ļ\"":1753,"ç¡®å®ļ":1754,"æıĲåĩº":1755,"é«ĺæķĪ":1756,"æ¯ıä¸ª":1757,"åĿĩ":1758,"ä¸»ä¹ī":1759,"åį³å°Ĩ":1760,"æŁĲä¸ª":1761,"æĶ¹è¿Ľ":1762,"æĶ¹åĸĦ":1763,"ç¬¬ä¸Ģ":1764,"è¶ħè¿ĩ":1765,"å¤įæĿĤ":1766,"ç´ł":1767,"ator":1768,"ĠCom":1769,"æĭħå¿ĥ":1770,"åĿļæĮģ":1771,"æħ¢":1772,"åħ´è¶£":1773,"ç»Ŀå¯¹":1774,"è´Ńä¹°":1775,"ç¼ºä¹ı":1776,"ç®Ģåįķ":1777,"éĺħè¯»":1778,"å°¤åħ¶æĺ¯":1779,"binator":1780,"ĠCombinator":1781,"Op":1782,"]ï¼Į":1783,"ec":1784,"st":1785,"å²":1786,"çļĦåĪĿåĪĽåħ¬åı¸":1787,"è¿ħ":1788,"ä¸ĢçĽ´":1789,"åľ¨è¿Ļ":1790,"æľīäºº":1791,"è¯º":1792,"éĢĲ":1793,"å¤§å¹ħ":1794,"åħ¬å¹³":1795,"åĪĽå»º":1796,"è§Ĵ":1797,"æĢĢ":1798,"å¥ĭ":1799,"å¥ĸ":1800,"æĽ´å®¹æĺĵ":1801,"è´£":1802,"èĢĮæĺ¯":1803,"éĻ·":1804,"è¿ĩç¨ĭ":1805,"å¹¶éĿŀ":1806,"æĬķç¥¨":1807,"çĶ¨äºİ":1808,"æİĴ":1809,"èĢħçļĦ":1810,"ç¾¤":1811,"å±Ĥ":1812,"æŃ¤å¤ĸ":1813,"çĽ¸åĲĮ":1814,"å»ºéĢł":1815,"ä»İæľª":1816,"éĺ»":1817,"éĽ¶":1818,"åĪ©çĶ¨":1819,"çŃīçŃī":1820,"æ¸Ĳ":1821,"æĽ´å¤ļçļĦ":1822,"å¤±åİ»":1823,"çī©çĲĨ":1824,"æģĲ":1825,"ç¤¾åĮº":1826,"ç¥ŀ":1827,"è§ĤçĤ¹":1828,"éĻĲåĪ¶":1829,"ç§ĳåŃ¦å®¶":1830,"è¾¾åĪ°":1831,"éĶĢåĶ®":1832,"åģľæŃ¢":1833,"çŃĶæ¡Ī":1834,"çªģçł´":1835,"åį±éĻ©":1836,"æĦıåĳ³çĿĢ":1837,"30":1838,"am":1839,"æ¥":1840,"ç¯":1841,"éĵ":1842,"éŁ":1843,"çļĦæĹ¶éĹ´":1844,"äºĶ":1845,"æĪĳæĥ³":1846,"äººåĳĺ":1847,"ä¸Ģæł·":1848,"ä¸Ģä½į":1849,"ä¹¦":1850,"èµ°":1851,"å¯Ł":1852,"æ³Ľ":1853,"åģ¥":1854,"åģı":1855,"å¾ĹåĪ°":1856,"å¹´è½»":1857,"ä¸ĬçļĦ":1858,"åıĳå¸ĥ":1859,"ç»ıéªĮ":1860,"å½ĵä½ł":1861,"æĢ§çļĦ":1862,"å®ļä¹ī":1863,"åĵª":1864,"ä»İäºĭ":1865,"æĺİæĺ¾":1866,"æķĪåºĶ":1867,"æģ¶":1868,"è¿Ĳä½ľ":1869,"è¶ħçº§":1870,"æİ¨åĬ¨":1871,"çĽ´æİ¥":1872,"è®°ä½ı":1873,"éĶĻè¯¯çļĦ":1874,"è¯ģæĺİ":1875,"ç¼ĸç¨ĭ":1876,"æł¹æľ¬":1877,"éģ¿åħį":1878,"è¿ħéĢŁ":1879,"![":1880,"Je":1881,"¯çĭ":1882,"èĮ":1883,"ĠA":1884,"ĠG":1885,"è¿·":1886,"åĪĹ":1887,"åĪļ":1888,"æĪĳå¸ĮæľĽ":1889,"æĪĳçĽ¸ä¿¡":1890,"åľ¨æĪĳ":1891,"æľīä»·åĢ¼":1892,"è¿Ļå¾Ī":1893,"ä¸įåı¯":1894,"ä¸įå¤ª":1895,"ä¸įåĨį":1896,"å¹²":1897,"æĪĳä»¬çİ°åľ¨":1898,"ä¼ļè®®":1899,"æŃĮ":1900,"ç§ģ":1901,"åĨľ":1902,"æ¯«":1903,"å·¥åħ·":1904,"è¶ĭ":1905,"åĢŁ":1906,"æĭĴ":1907,"çĶŁäº§":1908,"éĥ½ä¸į":1909,"éķ¿æĹ¶éĹ´":1910,"çķĮ":1911,"éĩįè¦ģæĢ§":1912,"åĬ¨åĬĽ":1913,"ä¸ĭéĻį":1914,"ç½®":1915,"éĢļå¸¸æĺ¯":1916,"çŁ¥è¯Ĩ":1917,"å¹³çŃī":1918,"äº¤è°Ī":1919,"çĸ¯çĭ":1920,"èī°éļ¾":1921,"åĨħå®¹":1922,"é¢Ħæµĭ":1923,"ä»ħä»ħ":1924,"çĥĪ":1925,"åİŁåĽłæĺ¯":1926,"çĹĽ":1927,"çĻ½":1928,"æŃ£ç¡®çļĦ":1929,"ä¸¥éĩį":1930,"å¨ģ":1931,"ç¯ĩ":1932,"çĸ¯çĭĤ":1933,"AG":1934,"Ky":1935,"çļĦè¯Ŀ":1936,"è¿°":1937,"å®£":1938,"æľīå¤ļ":1939,"æľīæĦıä¹ī":1940,"å¾ģ":1941,"æĪĳä»¬ä¼ļ":1942,"èµļ":1943,"å¤§çº¦":1944,"ä½łä»¬":1945,"ä½łåºĶè¯¥":1946,"ä½ĨæĪĳè®¤ä¸º":1947,"èµĦæľ¬":1948,"äºĨè§£":1949,"å¯¹æĪĳ":1950,"æĽ´åĬł":1951,"å¾Ĺä¸į":1952,"å¿Ĺ":1953,"ä½ľçĶ¨":1954,"æķ°åŃĹ":1955,"ä¸ļåĬ¡":1956,"æĭī":1957,"èĩªçĦ¶":1958,"æĻ°":1959,"ä¾Ŀ":1960,"å±Ģ":1961,"åĪĨäº«":1962,"å¼ĢæĶ¾":1963,"ç«¯":1964,"æľ¬èº«":1965,"çľĭæĿ¥":1966,"è§£éĩĬ":1967,"åŁ¹":1968,"æ²¡æľīäºº":1969,"åĲĪä¼Ļ":1970,"è®©æĪĳ":1971,"ä¿ĿæĬ¤":1972,"çłģ":1973,"ç¨ĭåºı":1974,"è¿Ļç§įæĥħåĨµ":1975,"æį¢":1976,"æŀģåħ¶":1977,"å¼ºå¤§":1978,"åħ·ä½ĵ":1979,"æ¸ħæ¥":1980,"æ¸ħæĻ°":1981,"è®¾è®¡":1982,"çĬ¶":1983,"è°·æŃĮ":1984,"enAI":1985,"é¦ĸåħĪ":1986,"æ½ľåľ¨":1987,"åĤ¨":1988,"åİĭåĬĽ":1989,"æĦıè¯ĨåĪ°":1990,"å¹¿æ³Ľ":1991,"æİ§åĪ¶":1992,"åĲ¸å¼ķ":1993,"æµªè´¹":1994,"OpenAI":1995,"æĢĢçĸĳ":1996,"AGI":1997,"Kyle":1998,"åĲĪä¼Ļäºº":1999}